function [Y,Xf,Af] = ClasRombo(X,~,~)
%MYNEURALNETWORKFUNCTION neural network simulation function.
%
% Auto-generated by MATLAB, 06-Jul-2019 11:17:28.
%
% [Y] = myNeuralNetworkFunction(X,~,~) takes these arguments:
%
%   X = 1xTS cell, 1 inputs over TS timesteps
%   Each X{1,ts} = Qx16 matrix, input #1 at timestep ts.
%
% and returns:
%   Y = 1xTS cell of 1 outputs over TS timesteps.
%   Each Y{1,ts} = Qx1 matrix, output #1 at timestep ts.
%
% where Q is number of samples (or series) and TS is the number of timesteps.

%#ok<*RPMT0>

% ===== NEURAL NETWORK CONSTANTS =====

% Input 1
x1_step1.xoffset = [-4.07960339318949;-4.21839956685362;-3.82861513016491;-4.13127983738517;-3.09165337801458;-3.20347256581864;-3.57485500797729;-3.44776702243464;-3.22623658621319;-3.68688370965546;-2.92160529501558;-2.93978353016062;-2.93844540099963;-2.44029690040036;-2.16649957517769;-0.929404156896755];
x1_step1.gain = [0.222200602204633;0.250973274187823;0.259523898167381;0.258118078944535;0.338526870352725;0.305466333535068;0.305740106621167;0.307589405399596;0.321523511741621;0.271707341311847;0.337776678393889;0.324005402511372;0.324144449146952;0.369270312782139;0.439418181483184;0.588547199069036];
x1_step1.ymin = -1;

% Layer 1
b1 = [1.3011177533144597795;1.1871124098428436078;0.97352931332579961676;-0.14124254683705164681;0.2809546576686103303;-0.30656311992151280554;0.036477216202810157364;1.2396063915793955612;-1.5885873578725990818;1.5839287543541291647];
IW1_1 = [1.4942576203252193601 1.1128429228297211928 0.36237596070496319589 -0.69976175424644482259 0.71288375444631024713 -0.8974240014001667598 0.24403557282656090921 0.14125817586544694993 1.094697641749491801 -0.40326058816734161594 0.53885256309042117717 -0.25986346476864202737 0.29623563451374568256 1.8213632350096242707 -0.055846557840777931447 0.23433327749491053571;-1.2593117731128331549 -0.70832410450799510038 -1.877845500312593785 0.92449288095535486764 -0.017282117885540005525 0.50284308821782475185 1.258722489111754772 -0.19833706790952648769 -1.3465941627155404436 0.73781799390388935755 0.16055068623681065243 0.73003560094737462993 -0.040611004929417632292 0.46466711063635562917 2.0723898499549369134 0.061524188897419909705;-0.35003185166607847512 -0.076015195121957743196 -0.0029859123831558901166 0.18755527866946702931 0.55967182940878557051 0.11974206841671244939 -0.92362531334997022281 0.036086357335636136401 -0.78829873936191841022 0.55125835700772896075 -0.70554527356182838993 0.68868106995961242411 -0.58993117482606116653 0.087631347141110371712 -0.2258902181735983894 -0.37151140449925340592;0.51163586845465669484 0.44673847440252784091 -0.071232685409112622699 -0.89364279821517789149 -0.53339894107592122907 -0.60675854821081454116 1.4990389679185438521 -0.63808553120280953053 -0.97482688938969142001 2.3930628112244880512 -0.73116953475854995492 2.0127777472421524152 1.0059611096007807785 2.9037234819607631309 -0.6210387133450606667 0.63583248260918023842;0.65911754314744785965 0.4671759831322872536 -1.3604834829860359413 0.9146331897659598642 0.017423669720856838766 0.0086527215341084783018 0.66111463706058681833 0.46779323489801827307 -0.54428108225797044994 0.6191802080446957568 -0.2155438503164428532 -0.2072340915522707383 -0.46543017079829529514 1.5422910963319218514 0.24887367945145710824 0.55082909014641190382;0.54020727926932288199 -0.44145331598979592469 0.4220414535531085698 0.24565398607958796595 -0.48288616382796217819 -0.85649731296162834315 0.082286706533423209509 -0.23072091334996000511 0.63310946811177193361 0.55116834305498718649 -0.0097715009907669188316 1.1159600645042595524 -1.3552215542916072888 0.80201795573875278578 -0.0027384118047536001872 -0.079721992848427084;0.41376415570543451095 -0.40183890849276249213 1.8159427236955703044 -0.052647837457059483424 -0.30813273660082401983 -1.3179196489017832583 1.1282296173660635308 0.16977920948235317167 0.31390281841789047235 -0.31740364801261222727 -0.036770516644971183717 0.1962744800220401209 1.0760574609310205041 -1.198781781010484826 -1.2292222144669473494 -0.50133756096104542532;1.021886368814742152 1.0882807579276134735 0.39134317210101271511 0.2148421961479147213 -0.29091423348422401629 0.88908184538378387529 -0.32048706782750424615 0.40456095813846604248 0.5840571491613106847 0.026385930525830603166 -0.31017865463698907069 0.43877503706664267025 -0.13513128394357487583 0.27512150527232381858 -0.50791554326892729421 -0.037568158223424602538;-0.26155598638565263903 0.55974330124240978535 -0.89549706794312489144 -0.49251060242164051983 -0.14441966624492233451 0.10210047446007929073 0.2325335022427146292 -0.47521734411652655217 0.024759542264529598582 0.38912784509093573115 -0.37560008543498502043 0.49877461954933766108 0.31679997872113579982 0.44270311771076037433 -0.2016636449215279403 1.013892433131988291;0.3469663249827697471 0.17741601303166151804 -0.13180453803830266546 0.25499627429527704781 -0.16964438743091067585 0.45106659897581807828 -0.26489632255929490556 0.4471874580011750977 -0.60187513260654612601 0.67402136314023819441 0.020407292820655602988 0.56980000865532653975 0.27760925982627898678 -0.014513265775506319771 -0.23130804106642713358 -0.84299631745604020061];

% Layer 2
b2 = -0.7937723997308290258;
LW2_1 = [-2.3351565003558523159 -3.0214094603097652048 -1.0185099167610343063 -3.8354698186727618214 -1.2247601453253262882 -1.329087269844507091 2.3104168821423298752 -1.5252079522288708446 -0.56332750267633113772 -0.63530547074909793359];

% ===== SIMULATION ========

% Format Input Arguments
isCellX = iscell(X);
if ~isCellX
    X = {X};
end

% Dimensions
TS = size(X,2); % timesteps
if ~isempty(X)
    Q = size(X{1},1); % samples/series
else
    Q = 0;
end

% Allocate Outputs
Y = cell(1,TS);

% Time loop
for ts=1:TS
    
    % Input 1
    X{1,ts} = X{1,ts}';
    Xp1 = mapminmax_apply(X{1,ts},x1_step1);
    
    % Layer 1
    a1 = tansig_apply(repmat(b1,1,Q) + IW1_1*Xp1);
    
    % Layer 2
    a2 = logsig_apply(repmat(b2,1,Q) + LW2_1*a1);
    
    % Output 1
    Y{1,ts} = a2;
    Y{1,ts} = Y{1,ts}';
end

% Final Delay States
Xf = cell(1,0);
Af = cell(2,0);

% Format Output Arguments
if ~isCellX
    Y = cell2mat(Y);
end
end

% ===== MODULE FUNCTIONS ========

% Map Minimum and Maximum Input Processing Function
function y = mapminmax_apply(x,settings)
y = bsxfun(@minus,x,settings.xoffset);
y = bsxfun(@times,y,settings.gain);
y = bsxfun(@plus,y,settings.ymin);
end

% Sigmoid Positive Transfer Function
function a = logsig_apply(n,~)
a = 1 ./ (1 + exp(-n));
end

% Sigmoid Symmetric Transfer Function
function a = tansig_apply(n,~)
a = 2 ./ (1 + exp(-2*n)) - 1;
end
