function [Y,Xf,Af] = ClasificationRed2(X,~,~)
%MYNEURALNETWORKFUNCTION neural network simulation function.
%
% Generated by Neural Network Toolbox function genFunction, 05-Jul-2019 13:45:19.
%
% [Y] = myNeuralNetworkFunction(X,~,~) takes these arguments:
%
%   X = 1xTS cell, 1 inputs over TS timesteps
%   Each X{1,ts} = Qx16 matrix, input #1 at timestep ts.
%
% and returns:
%   Y = 1xTS cell of 1 outputs over TS timesteps.
%   Each Y{1,ts} = Qx1 matrix, output #1 at timestep ts.
%
% where Q is number of samples (or series) and TS is the number of timesteps.

%#ok<*RPMT0>

% ===== NEURAL NETWORK CONSTANTS =====

% Input 1
x1_step1.xoffset = [-3.94108462641273;-3.8844159664002;-5.46089404427909;-2.71752388856348;-3.18457671599045;-3.56658158975037;-2.86964497979412;-2.76673992458542;-2.93613390385478;-3.05437825048332;-2.74485487497656;-2.837285840757;-2.57082644178083;-2.42436641214573;-1.16966744186621;-2.19633712975183];
x1_step1.gain = [0.21027153764129;0.245818805105859;0.209367103741701;0.307219501658308;0.293896601669128;0.274392505769266;0.360405423135128;0.357103813355293;0.344451521917666;0.340683735268242;0.337542496041649;0.365808209304091;0.367214529189113;0.456463432594101;0.538985030553584;0.529647855211489];
x1_step1.ymin = -1;

% Layer 1
b1 = [1.3796246506163467593;1.08108418430054809;-1.2719832089437743683;1.2616638092028769069;-1.4303624729648907188;0.52110833863009820011;-0.11831908318716941042;0.96649530618013534955;2.6906322178756121311;2.0516111627798663264];
IW1_1 = [1.0544155172512557073 1.6392157302764684967 -1.0682069094392361297 0.52477595465322690593 0.73203445302214376067 0.28242073616718960105 -0.98452229553137449169 0.13384149155771168926 -1.0364499606363306583 -0.17515656332974557929 0.45448258947532571561 -0.57558547899962886341 -0.61531349944673330299 -0.23972598565141997606 0.49350108798903769003 2.1952866024254973354;-0.037410381641724582691 0.012892359927533876898 -0.24376222974903860585 0.51236107200365588188 -0.95654221082605994653 0.094652694657218136576 0.46706132143684059299 0.54212303248355919738 -0.10428891437310219836 -0.24943282122665680345 -0.92990503003316327124 -0.17178789487215109788 1.0629991250409673853 -0.68048208292780709705 -0.16341440805101536959 -1.0773739961283748112;-1.2128254865871976875 1.1055102048318063979 0.44597043505035505184 0.43330834094909276288 1.4909945095905172696 -0.33973987181867659757 0.54974644988965115644 0.71887020986595984162 0.14560758351760899609 0.033185107705059599392 0.83377613693683905183 -0.54915540191514333745 -0.39841144638324993421 -0.035979559487158037367 0.56321934917110039187 2.3683035106577641216;-0.4986795471307211014 1.3512186172320650446 0.59899355909326434944 0.40381488996780090517 0.47363485461953869216 -1.1089964103707148357 1.389924934940099277 -0.87421667324948704181 2.2702061897095999754 1.0125679978884072341 -0.61527909300316141472 -0.087433516914077108462 -0.17347953560488588165 -0.71157860402114303522 -0.53723820841825709049 -0.051553100229738635374;1.7500787710238616679 0.87420811265988895844 -0.35376520627927460216 -0.11589767939996323265 0.03196062787117966153 0.8958460800303537086 -0.42705921898881216148 -0.45991363366883147856 -2.3100173894139879316 -0.1115335747211811529 -0.74438608767274450084 0.40113317842990703355 0.087284069295682942258 -0.54865193309443494041 -0.55376480070374489717 0.35323852906528618867;-0.62920514427810614322 0.013772680582464936344 0.026130680151683537138 -1.4914711133704909862 0.75727335860430278203 -1.1338641465904393257 -0.47522604168255566659 0.19898717398969342773 -0.44919004810041029963 0.24777277254828680708 -0.1405732295704106849 -0.30684378102900128349 0.74751179997628180995 0.019356976268587955392 -0.69868863817258941573 -0.22203168921285176829;0.029611822849188625117 -0.20669757824532838941 -0.29101001146170979439 -0.11339900907330752178 -0.17057475010143210992 1.1587379828390089731 -4.8446042712461254709 1.8658305800344974212 -4.9354253681269808496 -0.40261009036786571391 -0.27920011226419144679 0.18168487172045894029 0.009085612216217104839 0.32217598165829353096 0.38673686484477903802 0.29148026024699513759;0.042671627030866805808 0.91540350841924300607 0.52398575622589194101 -0.0074198573569047993059 -0.59530329937173775967 -0.07317648044619723402 -0.031024517677926254783 0.47165725515255146894 -0.18674063375636268391 -0.64929231756744254511 1.8352633226293062485 0.072972749735227521173 -0.26122945960075671934 -0.071297466549387927826 0.049194852343770099912 -1.0795155604126684956;-1.0804868714472888325 0.63459016275399637852 0.28224416051926048965 0.3900544853721756855 -0.71330960227126227746 -0.71227925179981999015 3.9196805154778591174 -3.3038753200619983552 -2.3550002427244969283 -1.0840262733706740317 0.95943361580387942489 -0.49674343997501818615 -0.45605515909004440411 0.37933603966325668555 -0.47788728776800287745 -2.40308775857005541;0.028402641286549588917 0.038049197352287553175 -0.47813824498557822018 -0.061538500317450110788 0.39786880924386719416 0.35706314334764194252 0.52920876787105242123 0.056632190243021726661 0.62791605280222195784 0.081895877637346986555 -0.49501060613007247246 -0.13239848895450673227 -0.52163923681713708635 -0.55511874176983977414 -0.46589175187271680834 -0.24779355424356055981];

% Layer 2
b2 = -1.3851783636549994672;
LW2_1 = [-2.3630459384070645612 1.1145417507723414108 -2.7596883939012673004 -2.6037343625690536619 2.1610111038279109508 1.4453269431576447612 4.3631934158915290922 -1.9538830290671556078 6.129975840533049336 -1.2703119369098077041];

% ===== SIMULATION ========

% Format Input Arguments
isCellX = iscell(X);
if ~isCellX
    X = {X};
end

% Dimensions
TS = size(X,2); % timesteps
if ~isempty(X)
    Q = size(X{1},1); % samples/series
else
    Q = 0;
end

% Allocate Outputs
Y = cell(1,TS);

% Time loop
for ts=1:TS
    
    % Input 1
    X{1,ts} = X{1,ts}';
    Xp1 = mapminmax_apply(X{1,ts},x1_step1);
    
    % Layer 1
    a1 = tansig_apply(repmat(b1,1,Q) + IW1_1*Xp1);
    
    % Layer 2
    a2 = logsig_apply(repmat(b2,1,Q) + LW2_1*a1);
    
    % Output 1
    Y{1,ts} = a2;
    Y{1,ts} = Y{1,ts}';
end

% Final Delay States
Xf = cell(1,0);
Af = cell(2,0);

% Format Output Arguments
if ~isCellX
    Y = cell2mat(Y);
end
end

% ===== MODULE FUNCTIONS ========

% Map Minimum and Maximum Input Processing Function
function y = mapminmax_apply(x,settings)
y = bsxfun(@minus,x,settings.xoffset);
y = bsxfun(@times,y,settings.gain);
y = bsxfun(@plus,y,settings.ymin);
end

% Sigmoid Positive Transfer Function
function a = logsig_apply(n,~)
a = 1 ./ (1 + exp(-n));
end

% Sigmoid Symmetric Transfer Function
function a = tansig_apply(n,~)
a = 2 ./ (1 + exp(-2*n)) - 1;
end
