function [Y,Xf,Af] = ClasTriangulo(X,~,~)
%MYNEURALNETWORKFUNCTION neural network simulation function.
%
% Auto-generated by MATLAB, 06-Jul-2019 11:00:49.
%
% [Y] = myNeuralNetworkFunction(X,~,~) takes these arguments:
%
%   X = 1xTS cell, 1 inputs over TS timesteps
%   Each X{1,ts} = Qx16 matrix, input #1 at timestep ts.
%
% and returns:
%   Y = 1xTS cell of 1 outputs over TS timesteps.
%   Each Y{1,ts} = Qx1 matrix, output #1 at timestep ts.
%
% where Q is number of samples (or series) and TS is the number of timesteps.

%#ok<*RPMT0>

% ===== NEURAL NETWORK CONSTANTS =====

% Input 1
x1_step1.xoffset = [-3.84275632003825;-3.07729557483617;-3.37639225354351;-3.4528540910525;-3.09881523322505;-3.31404110651881;-3.02991608612596;-2.79439895804488;-2.89325954972451;-3.19049140989714;-3.20835322399862;-2.83520174912097;-3.15969776179804;-2.37437786402366;-2.34235198611504;-0.952589539381978];
x1_step1.gain = [0.222450339233897;0.299710967862186;0.295237257951815;0.279010838603354;0.334577237873552;0.26875753344333;0.33325929331057;0.350216417988861;0.348345534283734;0.328564759817739;0.339181109879822;0.345541252867383;0.288784762320567;0.355916768071761;0.387866920775842;0.582408583672509];
x1_step1.ymin = -1;

% Layer 1
b1 = [1.6619161503119872503;1.1135300230312934477;1.0374951056486529932;-1.01928891654158571;-0.080353904298074457779;0.3730593797749229279;0.50520685485951499771;-0.084583367767804062964;-1.4281787461929402738;0.060520319794859778195;1.4368402562146527224;0.14650595064062033046;-1.3619071542563643273;0.99661796603773999959;-1.2989375748128433319];
IW1_1 = [-0.15362129557168302529 -1.4585879691587559925 1.1692357375684570009 1.8460424995129038894 0.4052588633219838532 0.32717020560795329054 0.43369099478467454389 -0.63305281613608144209 0.029473509734275506883 0.098401123380338795243 0.95278515731447199766 0.61100471791679666911 -0.98981150931114569858 -2.2288807579399350089 2.1074919102015652328 -0.33929555163822699981;-0.75696543446576636249 -0.42166701578955634311 -0.033285765137940633018 -1.6282256838026991641 -0.17607914698611482063 0.17735711185068386841 0.031938743667232261103 0.18216000227146872392 0.38157870340078747784 1.3255569757721989976 -0.10702917363812605722 1.2460432029283219357 0.050833330184455162437 -0.48400281415073348468 -0.24841865478982899651 0.25737864416799549616;0.16967060072242837188 -0.12621550242088835914 0.068366897329149037277 0.75547470180165998688 0.68677536105886338724 -0.49078866167219364902 -0.4573265575891451995 -0.40099335040076750092 -0.51506076443730153258 -0.67753565348128474977 -0.38040958224672538623 0.426589539820117436 0.10622805197721101045 0.2191637657355365032 0.72492117671441880233 0.11236385899209944128;0.037861018337318648463 -0.79943287744943913875 0.046022507095014694722 0.036925559821048781206 0.87628672462047585423 0.5648756510123278396 0.58349197539618025132 -0.78817593845073541381 0.38827571075413502832 -0.29185006111254957473 0.24202423076643750366 -0.11535104311589676473 -1.7554876778180785735 1.6103224400804245775 -1.0384773184216538056 -0.37065881634009700818;0.17726789552963745367 -0.068795117699556526669 -1.4332783833644602289 -0.6845958605496366145 0.5091817407705441223 -0.27891929493669037621 0.28693105434981630575 -0.72091428629838294473 -0.13015168785823369446 0.20339880134437271497 -0.17484955256962322889 -0.76043267422674232225 -0.64622039098860140083 -0.84280612778427854703 0.062487993467144807569 -0.89629811098712353079;-0.67280860305428369372 -0.59059850844097416811 -0.48924044693665430517 -0.096662894080560141097 0.5546982076497134484 2.4493466337005229683 0.75278296802241750907 -2.3642612268788227858 -0.012268661395390692559 0.53227882111936664078 0.039434344148669212005 0.3323357679131071496 -0.3533892361523880421 1.7658465812269739104 -0.23035080970115318078 1.1267245525763978087;0.29582903960166512247 0.56064931987020427684 1.5617298828461636528 -0.61764390513854749987 -0.57409739567186190978 -1.7323042186047137303 -0.90219474202113181249 0.6268700967230956822 0.2626477889882086747 0.48625546162464261535 -0.050750003946355710938 -0.33979931548989650292 0.96805022207013857738 -2.1380372916823264795 -0.1742148730468650597 0.0011588173666244438315;-0.32759385277141872539 -0.051169593745297142773 -0.97700869849176341653 -0.50497126313568252431 0.43275796011251277395 0.14998371349529693308 0.16759271363040745273 0.097772592468749863759 0.068078129155296665531 0.49868740845573356069 -0.93426029129840859611 -0.27293363422771110827 -0.24184195360406754438 -0.10051798634478086025 -1.3584711478434865484 -0.019932022207659327862;-0.58140297197547252672 -1.4813041483086810679 -0.097378684586855820959 0.79503699856986631556 0.060212395375415034282 0.020283789914519199937 0.28992226804570858656 -0.72281662455156048264 0.52250783649759469096 0.12371667529052454704 0.38682539914326197206 0.26048071932493321867 0.21747556834864434361 -0.90853624913401165308 0.80553162185031979003 0.38408911962065978019;0.46177901152393691087 -0.37736691587223086808 0.5640461381851696876 -0.3933608860534068552 0.15511060841008139644 0.49127327260667846831 -0.45251793791283284607 1.7666582138186690543 -0.095469963423198661578 -0.25954706927782489334 0.97083758403054898345 -0.80704391839624445293 0.16083074441967387669 -0.47008512646404609914 0.079277659567870167878 -0.55841461708217687843;-0.028975428079969861583 1.4647770284994028334 -0.16615522911413158069 -0.27960004010432609745 -0.69828695784646177547 0.10976689616504994862 -0.21897995992633359497 0.1184094368403320191 -0.22080419679512267028 0.01521568320254079211 0.98684799314817039928 -0.75583463556981678177 -0.080770153727762999951 1.8302115406854775337 0.4074895379374759985 -0.45670726845439180153;0.25351693461935370655 -0.70142286019216715243 -0.22622334607617564095 0.069107379429786383596 -0.49665685401003922816 0.51593162674137993395 -0.23746939560539725989 1.2369771307682968509 -0.90632968038022998503 -0.77776288148105610087 0.33451873017179623027 -0.67560249155339768823 0.79197579257285144472 -1.5362050197184793365 0.13704234069591181289 -0.024844544310247438507;-0.081170386842090588853 -1.420561692705518908 -1.4795858980344274158 -1.1612184062511434757 -0.38908948610629989773 -0.16362692567215667006 0.25934472850323625481 0.15384895469628803721 0.3414643621774848814 -0.041545130280386421973 0.15234436587801405971 -0.84266378582793455276 0.094347240247009231395 -1.4340690092778816123 -0.92191464247579846258 -0.31377997166539056684;0.0073594850672659417601 -0.032625735154885183997 0.92235230890493169476 -1.0079234325080306256 -0.44794053890828600117 -0.84935240054804084231 1.4453336264089631236 -1.9186151415457046721 -0.31020976777962411264 -0.69800055961620610656 0.40041476581700985449 -0.85694332026991237861 -1.1519196943073151118 -0.99230661654586227449 -0.91613899253836572623 -0.23342395529268561427;-0.48481592045354326981 -0.84931192602095184618 0.27597886041371200161 -0.18030032820990543607 0.02330450564120169904 0.63762549909265597847 0.039515710522542109306 -0.29004505039890426943 -0.33792085144552508336 -0.018775511783176650205 -0.68310021609701665479 0.84919893576574412286 0.14135856311296771115 -0.87940699863813953652 -0.90754144651139379008 0.56078586174013778098];

% Layer 2
b2 = -0.13723401499171847262;
LW2_1 = [-3.8648226732213264434 -1.5055268634422724894 -0.36376658916193616022 -1.8254671275472285075 1.2404846466070302835 -2.7344006008913042116 2.4148620465009482672 1.1004316607623725321 1.7277575178666793043 1.5695086282989743065 -2.0910117473792442233 1.428154884204570596 2.4090429498150514043 3.0450739044654380194 0.77467823710068373089];

% ===== SIMULATION ========

% Format Input Arguments
isCellX = iscell(X);
if ~isCellX
    X = {X};
end

% Dimensions
TS = size(X,2); % timesteps
if ~isempty(X)
    Q = size(X{1},1); % samples/series
else
    Q = 0;
end

% Allocate Outputs
Y = cell(1,TS);

% Time loop
for ts=1:TS
    
    % Input 1
    X{1,ts} = X{1,ts}';
    Xp1 = mapminmax_apply(X{1,ts},x1_step1);
    
    % Layer 1
    a1 = tansig_apply(repmat(b1,1,Q) + IW1_1*Xp1);
    
    % Layer 2
    a2 = logsig_apply(repmat(b2,1,Q) + LW2_1*a1);
    
    % Output 1
    Y{1,ts} = a2;
    Y{1,ts} = Y{1,ts}';
end

% Final Delay States
Xf = cell(1,0);
Af = cell(2,0);

% Format Output Arguments
if ~isCellX
    Y = cell2mat(Y);
end
end

% ===== MODULE FUNCTIONS ========

% Map Minimum and Maximum Input Processing Function
function y = mapminmax_apply(x,settings)
y = bsxfun(@minus,x,settings.xoffset);
y = bsxfun(@times,y,settings.gain);
y = bsxfun(@plus,y,settings.ymin);
end

% Sigmoid Positive Transfer Function
function a = logsig_apply(n,~)
a = 1 ./ (1 + exp(-n));
end

% Sigmoid Symmetric Transfer Function
function a = tansig_apply(n,~)
a = 2 ./ (1 + exp(-2*n)) - 1;
end
