function [Y,Xf,Af] = Regresor2(X,~,~)
%MYNEURALNETWORKFUNCTION neural network simulation function.
%
% Generated by Neural Network Toolbox function genFunction, 05-Jul-2019 13:17:28.
%
% [Y] = myNeuralNetworkFunction(X,~,~) takes these arguments:
%
%   X = 1xTS cell, 1 inputs over TS timesteps
%   Each X{1,ts} = Qx16 matrix, input #1 at timestep ts.
%
% and returns:
%   Y = 1xTS cell of 1 outputs over TS timesteps.
%   Each Y{1,ts} = Qx1 matrix, output #1 at timestep ts.
%
% where Q is number of samples (or series) and TS is the number of timesteps.

%#ok<*RPMT0>

% ===== NEURAL NETWORK CONSTANTS =====

% Input 1
x1_step1.xoffset = [-3.94108462641273;-3.8844159664002;-5.46089404427909;-2.71752388856348;-3.18457671599045;-3.56658158975037;-2.86964497979412;-2.76673992458542;-2.93613390385478;-3.05437825048332;-2.74485487497656;-2.837285840757;-2.57082644178083;-2.42436641214573;-1.16966744186621;-2.19633712975183];
x1_step1.gain = [0.21027153764129;0.245818805105859;0.209367103741701;0.307219501658308;0.293896601669128;0.274392505769266;0.360405423135128;0.357103813355293;0.344451521917666;0.340683735268242;0.337542496041649;0.365808209304091;0.367214529189113;0.456463432594101;0.538985030553584;0.529647855211489];
x1_step1.ymin = -1;

% Layer 1
b1 = [5.5079765936955284999;-0.17273572499642350642;-1.2193811222989408005;0.21172591593727746462;4.2503032980917234696;-0.55101650634922183514;-0.0090173667762249963553;-2.7127902594503110478;4.3497921604378895211;3.4137598140443747852];
IW1_1 = [-1.507964411556341755 4.3308314419875069134 0.5365286946270046986 -1.3177198971133357031 -3.6410148050966739675 -4.3816085462658875826 -1.8071522728383855316 1.1192442973334046918 -1.8033338770230564752 1.947879632355856705 -3.2093346657225021445 2.5036030102308872713 8.6554049558979553325 -0.85108396199194435994 0.022904076870873098237 -0.056721784818638015802;0.47304284367547638768 0.17233333889300858632 0.14878762622124569459 0.1485885160146169226 0.29647759386631084011 -1.3976105582623592483 4.6640381326793267647 -1.7541086702291019961 5.3545575670623071218 0.92653780287345932631 0.17547595767337878514 -0.012081919667624887657 -0.043160658327485432184 -0.11473850320008226189 0.058379446215420280342 -0.041829939999058200761;1.7628397111651903373 -0.64800629916383289952 0.083664236554880505592 -0.59839164364919217309 -1.0441941039015760762 -0.4005983866104487201 3.4085884175401819363 -2.2803751095018851558 2.5872819241985669514 1.6123416127958647426 -2.3825502779458780367 0.53712797982235849226 2.0792723756834865512 -0.27560478580825509276 -0.74128977973322585093 -1.3360400875078823901;0.26064371899986510384 0.22959983312470189087 0.2420392980765288804 0.31363922849107483959 0.79591278035971180227 -1.2980380779488640552 5.0019159359156715183 -1.8763935613765694299 5.4852411104571032752 0.64762305863258440297 0.79994889145057479496 -0.2543801825567555408 -0.65365214620632350329 -0.21114413229460352039 -0.029519422910124368253 0.17383835135738792688;3.7815956884770427493 2.7583629032296625994 -0.49121406413216606168 0.24456919299028262449 0.48462488064092118512 0.81650691734112590403 0.43419871131107595774 -0.46561153422169854199 -0.67729122387912599201 -0.098657690644225581877 0.20217412593513561792 0.11182861042442678035 0.01616246457020096769 -0.21848156981502936391 0.50883079020774280021 4.1648962408023608717;-0.59589609297530010679 0.63527263282871626604 0.21571305565224879741 0.31287155871452443368 1.1182442717503495722 1.3795829460401485278 -6.3518148867017387715 2.9285128941371776357 -3.5653314730650595976 -0.99471792419519911022 0.40889690396015682117 -0.49380621601834795431 -0.60841743695741723474 1.0716499941120998241 -0.30055835707899869469 2.655114046556243057;0.35821583447863575289 0.21043930611391625796 0.19729286231462481171 0.21761952742168025332 0.5207137871979566901 -1.346922372491735187 4.7591042143478681226 -1.7841775045748162754 5.3828312288193771451 0.80067978385805882446 0.45796942525357570153 -0.13347436137752111129 -0.31893913972366721987 -0.14957877961995039162 0.0071851566464514026594 0.08540237073704019799;-2.2395731185012834885 -0.0097950039556062348106 0.67006730733911501474 1.1892767679400126912 2.8771686213142597666 -0.28395091043053238833 1.7526272488286478435 -0.29082668638325775978 1.5236102736889283182 -0.54521534240241975589 2.6946200357388536695 -1.1097373925300975106 -2.0549769437869347399 -0.56848311958600494798 0.13583605601369988514 0.1817695508613866584;2.7046324964488723808 2.0597041587416415886 -0.46591852951174761444 0.23277132107916906345 0.078537251076909980751 0.55311940560745298523 1.4684832308733821726 -1.5301417275044904009 -1.8495777635329513355 -0.53233271319560993007 0.31147774682828455184 0.052844769884607525889 -0.24868588144328512834 -0.12199356664841164155 0.1371657346089658891 2.3068898882169381892;0.036855398928622572219 0.3399826462358586654 0.059505671429149559204 0.19078129288150058596 -0.93895629300858896027 -0.14702799527534199386 3.6708343046541975774 -3.5358653333907987815 -4.3074807865868898205 -1.4466256747977843666 0.56449639567172293919 -0.20270811676552843994 -0.46722201231438459379 0.12507923473777760037 -0.56878095888966340166 -1.6638570169406701194];

% Layer 2
b2 = -1.238933996380088054;
LW2_1 = [-0.36582394917396426903 -3.419170295551082539 -0.13022585078077258958 -2.621483216131688998 -1.6363496659967080582 -0.11959864827604616 6.0551157664985089113 0.42026478051368110211 3.3807761967111433776 -0.6878465084332755497];

% Output 1
y1_step1.ymin = -1;
y1_step1.gain = 0.176343263797713;
y1_step1.xoffset = 0.28125;

% ===== SIMULATION ========

% Format Input Arguments
isCellX = iscell(X);
if ~isCellX
    X = {X};
end

% Dimensions
TS = size(X,2); % timesteps
if ~isempty(X)
    Q = size(X{1},1); % samples/series
else
    Q = 0;
end

% Allocate Outputs
Y = cell(1,TS);

% Time loop
for ts=1:TS
    
    % Input 1
    X{1,ts} = X{1,ts}';
    Xp1 = mapminmax_apply(X{1,ts},x1_step1);
    
    % Layer 1
    a1 = tansig_apply(repmat(b1,1,Q) + IW1_1*Xp1);
    
    % Layer 2
    a2 = repmat(b2,1,Q) + LW2_1*a1;
    
    % Output 1
    Y{1,ts} = mapminmax_reverse(a2,y1_step1);
    Y{1,ts} = Y{1,ts}';
end

% Final Delay States
Xf = cell(1,0);
Af = cell(2,0);

% Format Output Arguments
if ~isCellX
    Y = cell2mat(Y);
end
end

% ===== MODULE FUNCTIONS ========

% Map Minimum and Maximum Input Processing Function
function y = mapminmax_apply(x,settings)
y = bsxfun(@minus,x,settings.xoffset);
y = bsxfun(@times,y,settings.gain);
y = bsxfun(@plus,y,settings.ymin);
end

% Sigmoid Symmetric Transfer Function
function a = tansig_apply(n,~)
a = 2 ./ (1 + exp(-2*n)) - 1;
end

% Map Minimum and Maximum Output Reverse-Processing Function
function x = mapminmax_reverse(y,settings)
x = bsxfun(@minus,y,settings.ymin);
x = bsxfun(@rdivide,x,settings.gain);
x = bsxfun(@plus,x,settings.xoffset);
end
