function [Y,Xf,Af] = RegRombo(X,~,~)
%MYNEURALNETWORKFUNCTION neural network simulation function.
%
% Auto-generated by MATLAB, 06-Jul-2019 11:13:18.
%
% [Y] = myNeuralNetworkFunction(X,~,~) takes these arguments:
%
%   X = 1xTS cell, 1 inputs over TS timesteps
%   Each X{1,ts} = Qx16 matrix, input #1 at timestep ts.
%
% and returns:
%   Y = 1xTS cell of 1 outputs over TS timesteps.
%   Each Y{1,ts} = Qx1 matrix, output #1 at timestep ts.
%
% where Q is number of samples (or series) and TS is the number of timesteps.

%#ok<*RPMT0>

% ===== NEURAL NETWORK CONSTANTS =====

% Input 1
x1_step1.xoffset = [-4.07960339318949;-4.21839956685362;-3.82861513016491;-4.13127983738517;-3.09165337801458;-3.20347256581864;-3.57485500797729;-3.44776702243464;-3.22623658621319;-3.68688370965546;-2.92160529501558;-2.93978353016062;-2.93844540099963;-2.44029690040036;-2.16649957517769;-0.929404156896755];
x1_step1.gain = [0.222200602204633;0.250973274187823;0.259523898167381;0.258118078944535;0.338526870352725;0.305466333535068;0.305740106621167;0.307589405399596;0.321523511741621;0.271707341311847;0.337776678393889;0.324005402511372;0.324144449146952;0.369270312782139;0.439418181483184;0.588547199069036];
x1_step1.ymin = -1;

% Layer 1
b1 = [18.334987523738345061;-4.4618153170509238237;-5.1126120305628415252;0.48512266790410130124;-1.2593773787009756582;-0.87673512399355113534;-1.0216175180937208111;-0.08587912225748688122;-0.41404589085206955357;1.0705875782807621199];
IW1_1 = [10.708932944051742453 15.15279836032474492 -1.6031802188323072134 -3.2402441106261026249 -1.7152712316193761133 0.76277139463482412918 0.39407264289838556115 0.83017522528320075725 2.4004883827622651715 3.6754869236485223638 0.081005993750866353564 4.935814315687118814 1.4325136865680176967 21.10809371042266136 0.44488630694385861153 0.20277160993674250844;-2.0356290421636411558 -2.4784271017800474368 0.68419806421165385579 1.6447552663109343829 -2.8545675099754102 -0.96387738927629518226 1.1172105871128032994 1.5412442591415416171 2.7282135188353060506 -0.63815155017867586373 0.2498487334554541639 1.4820467246492847746 2.999514031359149957 10.292538791538371257 1.881515796744008151 0.26724334084678946777;-0.56951608384593532808 -0.41836518006202494391 -1.550490299247361925 1.174360577434317765 1.9375393432548406736 -3.8703458442956701901 -1.5762527392199383591 -0.44781928743077970001 0.43834084622187485802 0.66294006215532697013 1.8058996681907042436 -0.69696761232991455426 -5.1565020975909074963 0.11312093133279259305 0.72757538043171443576 -0.12409978000225978245;-0.10028089577799383092 0.1016128517228663819 0.30883479613744307946 0.70713372253009776358 0.14020156047456516779 0.40720432026061287312 -1.1017222039400538236 0.46102022283985621964 0.95627219540239249973 -1.8031787409719919335 0.51166242220139035446 -1.3555510853640566626 -0.10656574147571525046 -2.4596969569893172292 0.11422172287163598337 -0.3706855486072869188;-1.5927706673455490627 -1.7698460289288693303 0.54093157523494406203 0.72304822335580754 0.4342979783032140384 0.11074529711374384022 -0.95184081070366111099 0.42659911411935214076 -0.05951011464641989962 -1.8363702666679369013 0.32778601693425057917 -1.5665539021597409963 -0.28547979749266244598 -4.8398511239182333554 -0.07565833761591503337 -0.23159392092668101837;0.073133875266153364203 0.49640670300348693766 0.39965596140843950845 0.1458324597651650123 0.003783327909733097405 -0.30479305128665079572 0.70627696762652025786 -0.11536112693245229033 -0.50592829169123398891 -0.1211618051418528047 -0.24257208690207965329 0.066322217525506849123 0.057655293360801850022 -1.0556599446999672676 -0.26269024888157654907 -0.046507861986881268712;-1.0294019066453135025 0.57258286918741929661 -3.8213745519738644418 4.4662749478418870552 -0.99580017046430802097 1.5316070882171082257 0.035485333165042376447 0.39804752672146270775 -1.0825749390171954811 -1.6351356060694879346 0.96851388795595827474 -0.21434071309893115709 -0.32031983355990656381 -0.46517554098198632406 3.9361453474572956068 0.35441148979968051247;-0.95923893777805191441 -2.2655247262891968774 0.092909486230512483562 -0.35405937542522675221 -0.039168089009267575973 -0.25060083693602558386 0.45218576794019793574 -0.35279988367998849075 -0.74340571225971641134 0.66335032512882219358 -0.49144373791512824257 0.27607182783263445325 0.046261098301904841901 -0.78548749753164626153 -0.061317314883390622304 -0.1845501309363243303;-0.41812791044661817841 -0.52661518083255043354 -0.22275126525083435713 0.38665895577180942055 0.26748814141074406248 0.54519380655973714855 -1.2489398309593062741 0.42100146618841660651 0.83862769664832415017 -0.87880800034555162092 0.50290092264708230463 -0.88514100894739378145 -0.21536551309233381568 -0.97645951798819996537 0.38080699732564055049 0.040291157079679743025;1.0410087597280957006 -0.61205315800531823189 3.8662279244351234198 -4.5493955752046018048 1.0168185087753303097 -1.5712619918121963902 -0.076181966899663888793 -0.4034939253154465888 1.123439295038948682 1.6698849004784348526 -0.96459252214435664552 0.18689470310581238199 0.25214891844785458641 0.49516354484683100523 -3.990805324914387775 -0.35854198818628169043];

% Layer 2
b2 = 7.8407552387002841243;
LW2_1 = [-8.0839669110740839386 0.034608611044249046329 0.32645412441295662553 -0.24340694832012610416 -0.1093261889729160441 0.261695842734715578 1.5979134863585375825 0.079912962117991731548 0.2041246207997939599 1.598724097888039708];

% Output 1
y1_step1.ymin = -1;
y1_step1.gain = 0.0479399885328133;
y1_step1.xoffset = 0.223941130969123;

% ===== SIMULATION ========

% Format Input Arguments
isCellX = iscell(X);
if ~isCellX
    X = {X};
end

% Dimensions
TS = size(X,2); % timesteps
if ~isempty(X)
    Q = size(X{1},1); % samples/series
else
    Q = 0;
end

% Allocate Outputs
Y = cell(1,TS);

% Time loop
for ts=1:TS
    
    % Input 1
    X{1,ts} = X{1,ts}';
    Xp1 = mapminmax_apply(X{1,ts},x1_step1);
    
    % Layer 1
    a1 = tansig_apply(repmat(b1,1,Q) + IW1_1*Xp1);
    
    % Layer 2
    a2 = repmat(b2,1,Q) + LW2_1*a1;
    
    % Output 1
    Y{1,ts} = mapminmax_reverse(a2,y1_step1);
    Y{1,ts} = Y{1,ts}';
end

% Final Delay States
Xf = cell(1,0);
Af = cell(2,0);

% Format Output Arguments
if ~isCellX
    Y = cell2mat(Y);
end
end

% ===== MODULE FUNCTIONS ========

% Map Minimum and Maximum Input Processing Function
function y = mapminmax_apply(x,settings)
y = bsxfun(@minus,x,settings.xoffset);
y = bsxfun(@times,y,settings.gain);
y = bsxfun(@plus,y,settings.ymin);
end

% Sigmoid Symmetric Transfer Function
function a = tansig_apply(n,~)
a = 2 ./ (1 + exp(-2*n)) - 1;
end

% Map Minimum and Maximum Output Reverse-Processing Function
function x = mapminmax_reverse(y,settings)
x = bsxfun(@minus,y,settings.ymin);
x = bsxfun(@rdivide,x,settings.gain);
x = bsxfun(@plus,x,settings.xoffset);
end
