function [Y,Xf,Af] = RegTriangulo(X,~,~)
%MYNEURALNETWORKFUNCTION neural network simulation function.
%
% Auto-generated by MATLAB, 06-Jul-2019 11:06:59.
%
% [Y] = myNeuralNetworkFunction(X,~,~) takes these arguments:
%
%   X = 1xTS cell, 1 inputs over TS timesteps
%   Each X{1,ts} = Qx16 matrix, input #1 at timestep ts.
%
% and returns:
%   Y = 1xTS cell of 1 outputs over TS timesteps.
%   Each Y{1,ts} = Qx1 matrix, output #1 at timestep ts.
%
% where Q is number of samples (or series) and TS is the number of timesteps.

%#ok<*RPMT0>

% ===== NEURAL NETWORK CONSTANTS =====

% Input 1
x1_step1.xoffset = [-3.84275632003825;-3.07729557483617;-3.37639225354351;-3.4528540910525;-3.09881523322505;-3.31404110651881;-3.02991608612596;-2.79439895804488;-2.89325954972451;-3.19049140989714;-3.20835322399862;-2.83520174912097;-3.15969776179804;-2.37437786402366;-2.34235198611504;-0.952589539381978];
x1_step1.gain = [0.222450339233897;0.299710967862186;0.295237257951815;0.279010838603354;0.334577237873552;0.26875753344333;0.33325929331057;0.350216417988861;0.348345534283734;0.328564759817739;0.339181109879822;0.345541252867383;0.288784762320567;0.355916768071761;0.387866920775842;0.582408583672509];
x1_step1.ymin = -1;

% Layer 1
b1 = [2.606415081576580306;-3.5332278691603806742;0.36651735573404192747;0.31420308806341246122;-1.4033296358107236745;3.8179199866462201207;2.2096139317889980092;-1.1034622854405733428;4.0661125186742630433;15.589305270954984195];
IW1_1 = [0.23813069215531976197 1.1125156720554483236 0.19660495943860839541 -0.3414752555659060218 0.086708753233377081071 0.35739925728236210389 0.08850073234320565696 -0.12234680902071978781 -0.12850121791970198215 -0.11054584531194197594 0.094785711154676002832 -0.13365474552626188665 -0.1737253812929124841 0.78132982828870867209 -0.38973579840087979598 0.088912777230689202246;-0.068849777999436242992 -0.21815526346650235268 -0.39337894769564440978 0.11870425892570334037 1.3486092829856666242 0.84588931213249318741 3.7520209241829283187 -6.7741898481218765227 0.64008061841744778864 -0.11109436284498612479 0.92870626828359281735 1.1745597796673579172 -3.7286860111749797753 1.9429987701947157852 -0.83489265186392025431 0.20012562999342764503;0.32838435100080359819 1.0990695138767734296 0.27004301717322226617 -0.79037940578862864172 -0.98059681674569953991 -1.7438669511670199519 -1.2250654860750236352 2.8597508226706307433 -0.52492967920277333604 -0.35724575782631867726 0.046934390441032966534 -1.7866313869540060288 1.8959911815128882573 -4.1953222996597983041 -0.59069334133128892361 -0.73161780947488319615;-0.26822411021825015576 1.5209398200812409563 -0.54859284062046576036 -0.05791649367290819389 -0.24410981884498791916 1.0329733232690250233 -0.72928156689818535163 1.5475488741572702711 -0.083805767753819787602 0.78993455757489572377 -0.46056385931362925357 0.40970112437388384041 0.8689358441191606941 1.9694147558205445936 0.63135310041370240608 -1.0063149220371365722;-0.2642898272265929438 -0.9885980438038117768 -0.28679914924892663253 0.43034463632147479384 0.040765169036926715562 0.4874971364469280477 -0.2990369659014143755 0.2824216443254978226 -0.081618540750386450733 0.32826320399404984585 -0.033177442295763207025 0.30079277690949979274 0.14088150224434595192 0.62110250100498820558 0.52750093084618987493 -0.17777479701225565312;0.55383037473596585798 0.48034985119648970775 -0.58023647075363582459 -1.9272261207638234914 2.020386773210323561 2.7003499043125578361 1.925343088336931574 0.32622165301408556637 -1.871102321308721228 -0.50817232956338809213 1.2562816192325718667 -3.0207970043697991436 -2.6855516880977345906 -1.2159816016554012563 -1.3664684340993733525 0.09788331726108190356;0.4106208786648557485 0.53900589990229630377 0.23999595876217658108 -0.2893146660426482164 0.2970538409159840243 1.1980089837027698696 0.38518472944433823635 -1.0905135555349541043 -0.2104477389280145494 -0.094707627998105531342 0.57665751701351619651 -0.12233269475184153918 -0.72545563787837508141 2.7281363470071844368 -1.0114974373202334501 0.42108295013629970516;0.50688348273824668233 1.1540781561491384455 1.3911873855943428513 2.1666682587930030657 -1.695611678589602267 0.40883082017290378607 -0.76663684681776955721 -0.031289107412614855508 -1.3583041577047245685 -1.0381360833505872687 -0.046457605850858049723 0.83793692284647902646 -2.5694698502724704348 2.0846047924849240296 1.770774370586048807 -1.0051648045436001322;0.78138952256384519579 0.48443954554287244063 -0.85428707531994230173 -2.3775597314581009556 2.0374441183550366929 2.5349933035313618745 1.9590967687301730216 0.3314425437421062437 -1.7007958286691280403 -0.47501777583335647037 1.0180415033895959809 -2.9987826168836848595 -2.5503726376716175928 -1.3438191413412885478 -1.7509314556120849637 0.12277057473105437713;1.4142864398950867333 10.684719165349628511 0.39314150212518245153 -0.98285258318847767978 1.5018591466643556043 6.301795126491373189 0.24958282047688556959 -3.3781112957954806397 -1.2011033705000462302 1.2126521389627162861 0.75298816376142307938 0.54085806457398477587 -3.4857422678621112766 16.884551599472526817 -1.4679021078521774513 0.30422368646255693037];

% Layer 2
b2 = 5.6683324678052793288;
LW2_1 = [1.8513837035023072985 0.051293013737123013818 -0.070434048765563750383 -0.031733006036148848905 0.24065907121908097777 -0.92775581309465582347 -0.084329903742800721433 -0.010750704491344869121 0.80963924871267178851 -7.9448972728761217965];

% Output 1
y1_step1.ymin = -1;
y1_step1.gain = 0.0334887426866287;
y1_step1.xoffset = 0.221204972398764;

% ===== SIMULATION ========

% Format Input Arguments
isCellX = iscell(X);
if ~isCellX
    X = {X};
end

% Dimensions
TS = size(X,2); % timesteps
if ~isempty(X)
    Q = size(X{1},1); % samples/series
else
    Q = 0;
end

% Allocate Outputs
Y = cell(1,TS);

% Time loop
for ts=1:TS
    
    % Input 1
    X{1,ts} = X{1,ts}';
    Xp1 = mapminmax_apply(X{1,ts},x1_step1);
    
    % Layer 1
    a1 = tansig_apply(repmat(b1,1,Q) + IW1_1*Xp1);
    
    % Layer 2
    a2 = repmat(b2,1,Q) + LW2_1*a1;
    
    % Output 1
    Y{1,ts} = mapminmax_reverse(a2,y1_step1);
    Y{1,ts} = Y{1,ts}';
end

% Final Delay States
Xf = cell(1,0);
Af = cell(2,0);

% Format Output Arguments
if ~isCellX
    Y = cell2mat(Y);
end
end

% ===== MODULE FUNCTIONS ========

% Map Minimum and Maximum Input Processing Function
function y = mapminmax_apply(x,settings)
y = bsxfun(@minus,x,settings.xoffset);
y = bsxfun(@times,y,settings.gain);
y = bsxfun(@plus,y,settings.ymin);
end

% Sigmoid Symmetric Transfer Function
function a = tansig_apply(n,~)
a = 2 ./ (1 + exp(-2*n)) - 1;
end

% Map Minimum and Maximum Output Reverse-Processing Function
function x = mapminmax_reverse(y,settings)
x = bsxfun(@minus,y,settings.ymin);
x = bsxfun(@rdivide,x,settings.gain);
x = bsxfun(@plus,x,settings.xoffset);
end
